{
  "version": "1.0",
  "truncation": null,
  "padding": null,
  "added_tokens": [
    {
      "id": 0,
      "content": "<｜begin▁of▁text｜>",
      "single_word": false,
      "lstrip": false,
      "rstrip": false,
      "normalized": false,
      "special": true
    },
    {
      "id": 1,
      "content": "<｜end▁of▁text｜>",
      "single_word": false,
      "lstrip": false,
      "rstrip": false,
      "normalized": false,
      "special": true
    },
    {
      "id": 2,
      "content": "<｜User｜>",
      "single_word": false,
      "lstrip": false,
      "rstrip": false,
      "normalized": false,
      "special": true
    },
    {
      "id": 3,
      "content": "<｜Assistant｜>",
      "single_word": false,
      "lstrip": false,
      "rstrip": false,
      "normalized": false,
      "special": true
    },
    {
      "id": 4,
      "content": "<｜fim▁middle｜>",
      "single_word": false,
      "lstrip": false,
      "rstrip": false,
      "normalized": false,
      "special": true
    },
    {
      "id": 5,
      "content": "<｜fim▁prefix｜>",
      "single_word": false,
      "lstrip": false,
      "rstrip": false,
      "normalized": false,
      "special": true
    },
    {
      "id": 6,
      "content": "<｜fim▁suffix｜>",
      "single_word": false,
      "lstrip": false,
      "rstrip": false,
      "normalized": false,
      "special": true
    },
    {
      "id": 7,
      "content": "<｜api▁calls▁begin｜>",
      "single_word": false,
      "lstrip": false,
      "rstrip": false,
      "normalized": false,
      "special": true
    },
    {
      "id": 8,
      "content": "<｜api▁calls▁end｜>",
      "single_word": false,
      "lstrip": false,
      "rstrip": false,
      "normalized": false,
      "special": true
    },
    {
      "id": 9,
      "content": "<｜api▁call▁begin｜>",
      "single_word": false,
      "lstrip": false,
      "rstrip": false,
      "normalized": false,
      "special": true
    },
    {
      "id": 10,
      "content": "<｜api▁call▁end｜>",
      "single_word": false,
      "lstrip": false,
      "rstrip": false,
      "normalized": false,
      "special": true
    },
    {
      "id": 11,
      "content": "<｜api▁outputs▁begin｜>",
      "single_word": false,
      "lstrip": false,
      "rstrip": false,
      "normalized": false,
      "special": true
    },
    {
      "id": 12,
      "content": "<｜api▁outputs▁end｜>",
      "single_word": false,
      "lstrip": false,
      "rstrip": false,
      "normalized": false,
      "special": true
    },
    {
      "id": 13,
      "content": "<｜api▁output▁begin｜>",
      "single_word": false,
      "lstrip": false,
      "rstrip": false,
      "normalized": false,
      "special": true
    },
    {
      "id": 14,
      "content": "<｜api▁output▁end｜>",
      "single_word": false,
      "lstrip": false,
      "rstrip": false,
      "normalized": false,
      "special": true
    },
    {
      "id": 15,
      "content": "<｜api▁sep｜>",
      "single_word": false,
      "lstrip": false,
      "rstrip": false,
      "normalized": false,
      "special": true
    }
  ],
  "normalizer": {
    "type": "Sequence",
    "normalizers": []
  },
  "pre_tokenizer": {
    "type": "Sequence",
    "pretokenizers": [
      {
        "type": "Split",
        "pattern": {
          "String": "[\r\n]"
        },
        "behavior": "Isolated",
        "invert": false
      },
      {
        "type": "Split",
        "pattern": {
          "String": "\\s?[A-Za-zµÀ-ÖØ-öø-ƺƼ-ƿǄ-ʓʕ-ʯͰ-ͳͶͷͻ-ͽͿΆΈ-ΊΌΎ-ΡΣ-ϵϷ-ҁҊ-ԯԱ-ՖႠ-ჅᎠ-Ᏽᏸ-ᏽᲐ-ᲺᲽ-Ჿᴀ-ᴫᵫ-ᵷᵹ-ᶚḀ-ἕἘ-Ἕἠ-ὅὈ-Ὅὐ-ὗὙὛὝὟ-ώᾀ-ᾴᾶ-ᾼιῂ-ῄῆ-ῌῐ-ΐῖ-Ίῠ-Ῥῲ-ῴῶ-ῼℂℇℊ-ℓℕℙ-ℝℤΩℨK-ℭℯ-ℴℹℼ-ℿⅅ-ⅉⅎↃↄⰀ-ⱻⱾ-ⳤⳫ-ⳮⳲⳳꙀ-ꙭꚀ-ꚛꜢ-ꝯꝱ-ꞇꞋ-ꞎꭰ-ꮿﬀ-ﬆﬓ-ﬗＡ-Ｚａ-ｚ𐐀-𐑏𐒰-𐓓𐓘-𐓻𐲀-𐲲𐳀-𐳲𑢠-𑣟𞤀-𞥃]+"
        },
        "behavior": "Isolated",
        "invert": false
      },
      {
        "type": "Split",
        "pattern": {
          "String": "\\s?[!-/:-~！-／：-～‘-‟　-。]+"
        },
        "behavior": "Isolated",
        "invert": false
      },
      {
        "type": "Split",
        "pattern": {
          "String": "\\s+$"
        },
        "behavior": "Isolated",
        "invert": false
      },
      {
        "type": "Split",
        "pattern": {
          "String": "[一-龥ࠀ-一가-퟿]+"
        },
        "behavior": "Isolated",
        "invert": false
      },
      {
        "type": "Digits",
        "individual_digits": true
      },
      {
        "type": "ByteLevel",
        "add_prefix_space": false,
        "trim_offsets": true,
        "use_regex": false
      }
    ]
  },
  "post_processor": {
    "type": "ByteLevel",
    "add_prefix_space": true,
    "trim_offsets": false,
    "use_regex": true
  },
  "decoder": {
    "type": "ByteLevel",
    "add_prefix_space": true,
    "trim_offsets": true,
    "use_regex": true
  },
  "model": {
    "type": "BPE",
    "dropout": null,
    "unk_token": null,
    "continuing_subword_prefix": null,
    "end_of_word_suffix": null,
    "fuse_unk": false,
    "byte_fallback": false,
    "ignore_merges": false,
    "vocab": {
      "<｜begin▁of▁text｜>": 0,
      "<｜end▁of▁text｜>": 1,
      "<｜User｜>": 2,
      "<｜Assistant｜>": 3,
      "<｜fim▁middle｜>": 4,
      "<｜fim▁prefix｜>": 5,
      "<｜fim▁suffix｜>": 6,
      "<｜api▁calls▁begin｜>": 7,
      "<｜api▁calls▁end｜>": 8,
      "<｜api▁call▁begin｜>": 9,
      "<｜api▁call▁end｜>": 10,
      "<｜api▁outputs▁begin｜>": 11,
      "<｜api▁outputs▁end｜>": 12,
      "<｜api▁output▁begin｜>": 13,
      "<｜api▁output▁end｜>": 14,
      "<｜api▁sep｜>": 15,
      "!": 16,
      "\"": 17,
      "#": 18,
      "$": 19,
      "%": 20,
      "&": 21,
      "'": 22,
      "(": 23,
      ")": 24,
      "*": 25,
      "+": 26,
      ",": 27,
      "-": 28,
      ".": 29,
      "/": 30,
      "0": 31,
      "1": 32,
      "2": 33,
      "3": 34,
      "4": 35,
      "5": 36,
      "6": 37,
      "7": 38,
      "8": 39,
      "9": 40,
      ":": 41,
      ";": 42,
      "<": 43,
      "=": 44,
      ">": 45,
      "?": 46,
      "@": 47,
      "A": 48,
      "B": 49,
      "C": 50,
      "D": 51,
      "E": 52,
      "F": 53,
      "G": 54,
      "H": 55,
      "I": 56,
      "J": 57,
      "K": 58,
      "L": 59,
      "M": 60,
      "N": 61,
      "O": 62,
      "P": 63,
      "Q": 64,
      "R": 65,
      "S": 66,
      "T": 67,
      "U": 68,
      "V": 69,
      "W": 70,
      "X": 71,
      "Y": 72,
      "Z": 73,
      "[": 74,
      "\\": 75,
      "]": 76,
      "^": 77,
      "_": 78,
      "`": 79,
      "a": 80,
      "b": 81,
      "c": 82,
      "d": 83,
      "e": 84,
      "f": 85,
      "g": 86,
      "h": 87,
      "i": 88,
      "j": 89,
      "k": 90,
      "l": 91,
      "m": 92,
      "n": 93,
      "o": 94,
      "p": 95,
      "q": 96,
      "r": 97,
      "s": 98,
      "t": 99,
      "u": 100,
      "v": 101,
      "w": 102,
      "x": 103,
      "y": 104,
      "z": 105,
      "{": 106,
      "|": 107,
      "}": 108,
      "~": 109,
      "¡": 110,
      "¢": 111,
      "£": 112,
      "¤": 113,
      "¥": 114,
      "¦": 115,
      "§": 116,
      "¨": 117,
      "©": 118,
      "ª": 119,
      "«": 120,
      "¬": 121,
      "®": 122,
      "¯": 123,
      "°": 124,
      "±": 125,
      "²": 126,
      "³": 127,
      "´": 128,
      "µ": 129,
      "¶": 130,
      "·": 131,
      "¸": 132,
      "¹": 133,
      "º": 134,
      "»": 135,
      "¼": 136,
      "½": 137,
      "¾": 138,
      "¿": 139,
      "Â": 140,
      "Ã": 141,
      "Ä": 142,
      "Å": 143,
      "Æ": 144,
      "Ç": 145,
      "È": 146,
      "É": 147,
      "Ê": 148,
      "Ë": 149,
      "Ì": 150,
      "Í": 151,
      "Î": 152,
      "Ï": 153,
      "Ð": 154,
      "Ñ": 155,
      "Ò": 156,
      "Ó": 157,
      "Õ": 158,
      "Ö": 159,
      "×": 160,
      "Ø": 161,
      "Ù": 162,
      "Û": 163,
      "à": 164,
      "á": 165,
      "â": 166,
      "ã": 167,
      "ä": 168,
      "å": 169,
      "æ": 170,
      "ç": 171,
      "è": 172,
      "é": 173,
      "ê": 174,
      "ë": 175,
      "ì": 176,
      "í": 177,
      "î": 178,
      "ï": 179,
      "ð": 180,
      "ĉ": 181,
      "Ċ": 182,
      "č": 183,
      "ę": 184,
      "Ġ": 185,
      "Ģ": 186,
      "ģ": 187,
      "Ĥ": 188,
      "ĥ": 189,
      "Ħ": 190,
      "ħ": 191,
      "Ĩ": 192,
      "ĩ": 193,
      "Ī": 194,
      "ī": 195,
      "Ĭ": 196,
      "ĭ": 197,
      "Į": 198,
      "į": 199,
      "İ": 200,
      "ı": 201,
      "Ĳ": 202,
      "ĳ": 203,
      "Ĵ": 204,
      "ĵ": 205,
      "Ķ": 206,
      "ķ": 207,
      "ĸ": 208,
      "Ĺ": 209,
      "ĺ": 210,
      "Ļ": 211,
      "ļ": 212,
      "Ľ": 213,
      "ľ": 214,
      "Ŀ": 215,
      "ŀ": 216,
      "Ł": 217,
      "ł": 218,
      "Ń": 219,
      "ĠĠ": 220,
      "th": 221,
      "ĠĊ": 222,
      "eĠĠ": 223,
      "in": 224,
      "er": 225,
      "an": 226,
      "eĠ": 227,
      "on": 228,
      "sĠĠ": 229,
      "en": 230,
      "dĠĠ": 231,
      ",ĠĠ": 232,
      "or": 233,
      "at": 234,
      "of": 235,
      "sĠ": 236,
      "ar": 237,
      "ĠĠth": 238,
      "st": 239,
      "ou": 240,
      "re": 241,
      "ĠĊĊ": 242,
      "dĠ": 243,
      "al": 244,
      "to": 245,
      ".ĠĠ": 246,
      "it": 247,
      ",Ġ": 248,
      "ing": 249,
      "Ġth": 250,
      "ĠĠtheĠĠ": 251,
      "yĠĠ": 252,
      "ch": 253,
      "tĠĠ": 254,
      "hi": 255,
      "om": 256,
      "ion": 257,
      "se": 258,
      "yĠ": 259,
      "le": 260,
      "ä¸": 261,
      "andĠĠ": 262,
      ".Ġ": 263,
      "tĠ": 264,
      "ï¼": 265,
      "ofĠĠ": 266,
      "il": 267,
      "ic": 268,
      "ĠtheĠ": 269,
      "es": 270,
      "for": 271,
      "ï¼Į": 272,
      "edĠĠ": 273,
      "is": 274,
      "ac": 275,
      "el": 276,
      "ha": 277,
      ".ĠĊĊ": 278,
      "aĠĠ": 279,
      "âĢ": 280,
      "ow": 281,
      "çļ": 282,
      "çļĦ": 283,
      "toĠĠ": 284,
      "andĠ": 285,
      "ur": 286,
      "ol": 287,
      "erĠĠ": 288,
      "de": 289,
      "am": 290,
      "theĠĠ": 291,
      "aĠ": 292,
      "as": 293,
      "ent": 294,
      "ir": 295,
      "be": 296,
      "ãĢ": 297,
      "Th": 298,
      "ro": 299,
      "eĠĊ": 300,
      "wa": 301,
      "inĠĠ": 302,
      "iv": 303,
      "ith": 304,
      "isĠĠ": 305,
      "toĠ": 306,
      "ofĠ": 307,
      "gh": 308,
      "no": 309,
      "-ĠĊ": 310,
      "all": 311,
      "ed": 312,
      "wh": 313,
      "em": 314,
      "im": 315,
      "un": 316,
      "ingĠĠ": 317,
      "edĠ": 318,
      "äº": 319,
      "atĠĠ": 320,
      "ingĠ": 321,
      "con": 322,
      "ad": 323,
      "su": 324,
      "erĠ": 325,
      "with": 326,
      "ri": 327,
      "li": 328,
      "ab": 329,
      "isĠ": 330,
      "ec": 331,
      "ĠĠĠĠ": 332,
      "**": 333,
      "our": 334,
      "ver": 335,
      "ag": 336,
      "ation": 337,
      ",ĠĊ": 338,
      "inĠ": 339,
      "theĠ": 340,
      "atĠ": 341,
      "åı": 342,
      "ul": 343,
      "pl": 344,
      "id": 345,
      "enĠĠ": 346,
      "ĠĊĊĊ": 347,
      "sh": 348,
      "and": 349,
      "åħ": 350,
      "æľ": 351,
      "et": 352,
      "ofĠĠtheĠĠ": 353,
      "com": 354,
      "oĠĠ": 355,
      "ex": 356,
      "ä»": 357,
      "ut": 358,
      "oun": 359,
      "di": 360,
      "esĠĠ": 361,
      "po": 362,
      ",ĠĠandĠĠ": 363,
      "whi": 364,
      "esĠ": 365,
      "ear": 366,
      "åĪ": 367,
      "ill": 368,
      "tr": 369,
      "ter": 370,
      "anĠĠ": 371,
      "fr": 372,
      "us": 373,
      "ap": 374,
      "ãĢĤ": 375,
      "oo": 376,
      ".ĠĊ": 377,
      "qu": 378,
      "est": 379,
      "chĠĠ": 380,
      "pro": 381,
      "ma": 382,
      "per": 383,
      "res": 384,
      "oĠ": 385,
      "wasĠĠ": 386,
      "ĊĊ": 387,
      "tion": 388,
      "å®": 389,
      "alĠ": 390,
      "if": 391,
      "ä½": 392,
      "um": 393,
      "hav": 394,
      ";ĠĠ": 395,
      "asĠĠ": 396,
      "hisĠĠ": 397,
      "ta": 398,
      "è¿": 399,
      "alĠĠ": 400,
      "oul": 401,
      "anĠ": 402,
      "åĬ": 403,
      "stĠĠ": 404,
      "æĸ": 405,
      "from": 406,
      "åŃ": 407,
      "onĠĠ": 408,
      "enĠ": 409,
      "åľ": 410,
      "ay": 411,
      "ç»": 412,
      "çĶ": 413,
      "e,ĠĠ": 414,
      "s,ĠĠ": 415,
      "nĠĠ": 416,
      "å¤": 417,
      "itĠĠ": 418,
      "ev": 419,
      "ereĠĠ": 420,
      "orĠĠ": 421,
      "par": 422,
      "pr": 423,
      "heĠĠ": 424,
      "enc": 425,
      "op": 426,
      "âĢĶ": 427,
      "si": 428,
      "åĲ": 429,
      "lo": 430,
      "è¯": 431,
      "beĠĠ": 432,
      "anc": 433,
      "mo": 434,
      "æĺ": 435,
      "up": 436,
      "ä¹": 437,
      "wor": 438,
      "åĽ": 439,
      "ãĢģ": 440,
      "av": 441,
      "bu": 442,
      "ĠĠĠ": 443,
      "lyĠĠ": 444,
      "sĠĊ": 445,
      "ther": 446,
      "you": 447,
      "entĠĠ": 448,
      "TheĠĠ": 449,
      "ew": 450,
      "ant": 451,
      "ough": 452,
      "stĠ": 453,
      "gr": 454,
      "ä¼": 455,
      "ofĠtheĠ": 456,
      "è®": 457,
      "sp": 458,
      "s,Ġ": 459,
      "æķ": 460,
      "itĠ": 461,
      "åŃ¦": 462,
      "leĠĠ": 463,
      "uc": 464,
      "orĠ": 465,
      "ea": 466,
      "end": 467,
      "ell": 468,
      "onĠ": 469,
      "chĠ": 470,
      "man": 471,
      "yĠĊ": 472,
      "eir": 473,
      "ain": 474,
      "str": 475,
      "ff": 476,
      "inĠĠtheĠĠ": 477,
      "asĠ": 478,
      "forĠĠ": 479,
      "ish": 480,
      "entĠ": 481,
      "e,Ġ": 482,
      "co": 483,
      "ep": 484,
      "beĠ": 485,
      "eĠĠofĠĠ": 486,
      "inc": 487,
      "la": 488,
      ".Ċ": 489,
      "kĠĠ": 490,
      "kĠ": 491,
      "act": 492,
      "withĠĠ": 493,
      "oc": 494,
      "notĠĠ": 495,
      "forĠ": 496,
      "æĺ¯": 497,
      "æĪ": 498,
      "now": 499,
      "will": 500,
      "areĠĠ": 501,
      "In": 502,
      "IĠĠ": 503,
      "å¯": 504,
      "mor": 505,
      "IĠ": 506,
      "ong": 507,
      "byĠĠ": 508,
      "ä¸Ń": 509,
      "lyĠ": 510,
      "ig": 511,
      "him": 512,
      "TheĠ": 513,
      "âĢĿ": 514,
      "leĠ": 515,
      "ä¸Ģ": 516,
      "tw": 517,
      "åº": 518,
      "An": 519,
      "ĠĠtheĠĊ": 520,
      "y,ĠĠ": 521,
      "å¹": 522,
      "âĢľ": 523,
      "me": 524,
      "sa": 525,
      "æĢ": 526,
      "åľ¨": 527,
      "der": 528,
      "areĠ": 529,
      "ofĠĊ": 530,
      "ĠĠofĠĠ": 531,
      "igh": 532,
      "åĮ": 533,
      "oth": 534,
      "ect": 535,
      "whichĠĠ": 536,
      "å¼": 537,
      "rec": 538,
      "ĠĠ|": 539,
      "åĴ": 540,
      "âĢĶĠ": 541,
      "äºº": 542,
      "toĠĠtheĠĠ": 543,
      "èĢ": 544,
      "éĩ": 545,
      "åĴĮ": 546,
      "æĿ": 547,
      "tim": 548,
      "sel": 549,
      "æĹ": 550,
      "som": 551,
      "sĠĠofĠĠ": 552,
      "wasĠ": 553,
      "åį": 554,
      "s.ĠĠ": 555,
      "thatĠĠ": 556,
      "ereĠ": 557,
      "è¡": 558,
      "andĠĊ": 559,
      "ä¸º": 560,
      "os": 561,
      ",ĠandĠ": 562,
      "å°": 563,
      "ang": 564,
      "'sĠĠ": 565,
      "åĨ": 566,
      "pres": 567,
      "ra": 568,
      "æĶ": 569,
      "ne": 570,
      "\"ĠĠ": 571,
      "ca": 572,
      "æľī": 573,
      "æł": 574,
      "haveĠĠ": 575,
      "form": 576,
      "ouldĠĠ": 577,
      "mu": 578,
      ";Ġ": 579,
      "gre": 580,
      "allĠĠ": 581,
      "eyĠĠ": 582,
      "hisĠ": 583,
      "by": 584,
      "è§": 585,
      "withĠ": 586,
      "ourĠĠ": 587,
      "åĽ½": 588,
      "ud": 589,
      "Ch": 590,
      "çĽ": 591,
      "çİ": 592,
      "od": 593,
      "ard": 594,
      "å±": 595,
      "por": 596,
      "St": 597,
      "çĶŁ": 598,
      "bl": 599,
      "ment": 600,
      "pos": 601,
      "ess": 602,
      "ç§": 603,
      "inĠtheĠ": 604,
      "ist": 605,
      "ition": 606,
      "ĠĠthatĠĠ": 607,
      "è´": 608,
      "ot": 609,
      "æī": 610,
      "åĩ": 611,
      "Wh": 612,
      "year": 613,
      "br": 614,
      "dis": 615,
      "pre": 616,
      "int": 617,
      "å·": 618,
      "ful": 619,
      "ourĠ": 620,
      "ob": 621,
      "å¾": 622,
      "nĠ": 623,
      "ä¸į": 624,
      "that": 625,
      "ii": 626,
      "ind": 627,
      "'ĠĠ": 628,
      "éĢ": 629,
      "å¸": 630,
      ".ĠĊĊĊ": 631,
      "**ĊĊ": 632,
      "ple": 633,
      "ä¸ļ": 634,
      "notĠ": 635,
      "ser": 636,
      "thatĠ": 637,
      "oneĠĠ": 638,
      "çĲ": 639,
      "âĢĻ": 640,
      "\"Ġ": 641,
      "ure": 642,
      "fĠĠ": 643,
      "ationĠ": 644,
      "eĠofĠ": 645,
      "heĠ": 646,
      "itt": 647,
      ".ĠĠH": 648,
      "so": 649,
      "æĬ": 650,
      "å¯¹": 651,
      ":Ġ": 652,
      "cl": 653,
      "hadĠĠ": 654,
      "ever": 655,
      "dĠĊ": 656,
      "æŀ": 657,
      "å½": 658,
      "out": 659,
      "sc": 660,
      "af": 661,
      "ĠĠandĠĠ": 662,
      "s.Ġ": 663,
      "byĠ": 664,
      "ĠĠ|Ġ": 665,
      "mon": 666,
      "fir": 667,
      ",ĠĊĊ": 668,
      "use": 669,
      "ov": 670,
      "fa": 671,
      "he": 672,
      "eirĠĠ": 673,
      "low": 674,
      "ord": 675,
      "haveĠ": 676,
      "att": 677,
      "iveĠĠ": 678,
      "è¦": 679,
      "çĲĨ": 680,
      "ĥ½": 681,
      "ä»¥": 682,
      "ĠĠthisĠĠ": 683,
      "è¦ģ": 684,
      "part": 685,
      "do": 686,
      "tt": 687,
      "eyĠ": 688,
      "edĠĊ": 689,
      "keĠĠ": 690,
      "**ĊĊ**": 691,
      "les": 692,
      "åıĳ": 693,
      "dr": 694,
      "fe": 695,
      "pe": 696,
      "y,Ġ": 697,
      "mar": 698,
      "wereĠĠ": 699,
      "vi": 700,
      "èµ": 701,
      "ĠthatĠ": 702,
      "min": 703,
      "æ³": 704,
      "æķĻ": 705,
      "ber": 706,
      "äºĨ": 707,
      "ĠandĠ": 708,
      "TH": 709,
      "å¤§": 710,
      "ï¼ļ": 711,
      "toĠĊ": 712,
      "aĠĊ": 713,
      "her": 714,
      "youĠ": 715,
      "keĠ": 716,
      "soĠĠ": 717,
      "ouldĠ": 718,
      "sion": 719,
      "know": 720,
      "ä¸İ": 721,
      "ä½ľ": 722,
      "Mr": 723,
      "butĠĠ": 724,
      "éĿ": 725,
      "duc": 726,
      "allĠ": 727,
      ".ĠĠI": 728,
      "fin": 729,
      "au": 730,
      "ä¿": 731,
      "å¿": 732,
      "çī": 733,
      "fromĠĠ": 734,
      "not": 735,
      "ä½ĵ": 736,
      "hasĠĠ": 737,
      "oneĠ": 738,
      "ph": 739,
      "æ°": 740,
      "iveĠ": 741,
      "toĠtheĠ": 742,
      "sĠofĠ": 743,
      "æµ": 744,
      "éĹ": 745,
      "æĸĩ": 746,
      "åĮĸ": 747,
      "åŁ": 748,
      "æŃ": 749,
      "ä¼ļ": 750,
      "herĠĠ": 751,
      "tur": 752,
      "thĠĠ": 753,
      "çŃ": 754,
      "coun": 755,
      "ust": 756,
      "è¡Į": 757,
      "ge": 758,
      "outĠĠ": 759,
      "soĠ": 760,
      "inĠĊ": 761,
      "éĻ": 762,
      ".ĠĠTheĠĠ": 763,
      "pa": 764,
      "ĠofĠ": 765,
      "ti": 766,
      "Â«": 767,
      "rea": 768,
      ".ĠĠA": 769,
      "ateĠĠ": 770,
      "go": 771,
      "son": 772,
      "gen": 773,
      "icĠĠ": 774,
      ")Ġ": 775,
      "mer": 776,
      "ateĠ": 777,
      "des": 778,
      "ameĠĠ": 779,
      "ght": 780,
      "idĠĠ": 781,
      "ll": 782,
      "æĢ§": 783,
      "whichĠ": 784,
      "arg": 785,
      "onĠĠtheĠĠ": 786,
      "mad": 787,
      "ationĠĠ": 788,
      "beenĠĠ": 789,
      "weĠĠ": 790,
      ".ĠĠS": 791,
      "iz": 792,
      "weĠ": 793,
      "sĠĠandĠĠ": 794,
      "ĠĊĊĊĊ": 795,
      "èĩ": 796,
      "ityĠĠ": 797,
      "çĶ¨": 798,
      "war": 799,
      "es,ĠĠ": 800,
      "ool": 801,
      "outĠ": 802,
      "AN": 803,
      "iĠ": 804,
      "sĠandĠ": 805,
      "car": 806,
      "e.Ġ": 807,
      "ly": 808,
      "fĠ": 809,
      "èĥ½": 810,
      "..": 811,
      "but": 812,
      "äºİ": 813,
      "ous": 814,
      "ingĠĊ": 815,
      "æİ": 816,
      "å®ŀ": 817,
      "pu": 818,
      "ityĠ": 819,
      "fi": 820,
      "'sĠ": 821,
      "icĠ": 822,
      "which": 823,
      "art": 824,
      "theĠĊ": 825,
      "sedĠĠ": 826,
      "æĸ¹": 827,
      "inter": 828,
      ",ĠĠtheĠĠ": 829,
      "æĪĲ": 830,
      "ç¤": 831,
      "sub": 832,
      "whoĠĠ": 833,
      "gl": 834,
      "we": 835,
      "ĠĠtoĠĠ": 836,
      ";ĠĊ": 837,
      "çİ°": 838,
      "plac": 839,
      "pur": 840,
      "ĠĠS": 841,
      "how": 842,
      "cr": 843,
      ".ĠĠB": 844,
      "Jo": 845,
      "åĪĨ": 846,
      "ä¸»": 847,
      "é¢": 848,
      "well": 849,
      "bo": 850,
      "åĩº": 851,
      ".ĠĠĠĠĠ": 852,
      "lec": 853,
      "comm": 854,
      "sid": 855,
      "tain": 856,
      "myĠĠ": 857,
      "åľ°": 858,
      "serv": 859,
      "IN": 860,
      "und": 861,
      "willĠĠ": 862,
      "sch": 863,
      "ä¸Ĭ": 864,
      "ĠĠ|Ġ**": 865,
      "THE": 866,
      "te": 867,
      "willĠ": 868,
      "ĠĠC": 869,
      "edĠĠtoĠĠ": 870,
      "ey": 871,
      "âĢ¢": 872,
      "itsĠĠ": 873,
      "off": 874,
      "nes": 875,
      "nat": 876,
      "çº": 877,
      "åĬ¨": 878,
      "fl": 879,
      "ousĠĠ": 880,
      "å¹´": 881,
      "Fr": 882,
      "ç¨": 883,
      "ä¸ª": 884,
      "cer": 885,
      "eĠĠandĠĠ": 886,
      "ON": 887,
      "sur": 888,
      "goo": 889,
      "ER": 890,
      "fromĠ": 891,
      "ĠthisĠ": 892,
      "eirĠ": 893,
      "pp": 894,
      "è¾": 895,
      "èĤ": 896,
      "è¿Ľ": 897,
      "work": 898,
      "fol": 899,
      "own": 900,
      "atĠĠtheĠĠ": 901,
      "è¿Ļ": 902,
      "å±ķ": 903,
      "sol": 904,
      "æ³ķ": 905,
      "app": 906,
      "æĹ¶": 907,
      "åĳ": 908,
      "ewĠĠ": 909,
      "æĮ": 910,
      "eĠĠtheĠĠ": 911,
      "d,ĠĠ": 912,
      "usĠĠ": 913,
      "é«": 914,
      "ledĠĠ": 915,
      "ĠĠtheirĠĠ": 916,
      "rough": 917,
      "thĠ": 918,
      "butĠ": 919,
      "ici": 920,
      "åİ": 921,
      "é«ĺ": 922,
      "lat": 923,
      "ç»ı": 924,
      "cont": 925,
      "lin": 926,
      "En": 927,
      "ari": 928,
      "hadĠ": 929,
      "antĠĠ": 930,
      "**ĠĠ|Ġ**": 931,
      "acc": 932,
      "comp": 933,
      "æĶ¿": 934,
      "-Ġ": 935,
      "ableĠĠ": 936,
      "youĠĠ": 937,
      "ĠĊtheĠĠ": 938,
      "over": 939,
      "ke": 940,
      "noĠĠ": 941,
      "åĬĽ": 942,
      "ĠtheĠĊ": 943,
      "col": 944,
      "çł": 945,
      "ce": 946,
      "way": 947,
      "prov": 948,
      "hasĠ": 949,
      "æĦ": 950,
      "cre": 951,
      "allyĠ": 952,
      "ans": 953,
      ":ĠĠ": 954,
      "AndĠĠ": 955,
      "port": 956,
      "ide": 957,
      "stor": 958,
      "sy": 959,
      "iti": 960,
      "æ²": 961,
      "åĪ¶": 962,
      "shi": 963,
      "ingĠĠtheĠĠ": 964,
      "day": 965,
      "tionĠ": 966,
      "other": 967,
      "wr": 968,
      "da": 969,
      "mayĠĠ": 970,
      "OF": 971,
      "isĠĊ": 972,
      "ç©": 973,
      "ed,ĠĠ": 974,
      "ä¹ĭ": 975,
      "giv": 976,
      "æĥ": 977,
      "read": 978,
      "ass": 979,
      "ire": 980,
      "Â»": 981,
      ".ĠĠC": 982,
      ".ĠĠTh": 983,
      "èĢĮ": 984,
      ")ĠĠ": 985,
      "eng": 986,
      "æı": 987,
      "^ĠĠ": 988,
      "å·¥": 989,
      "usĠ": 990,
      "åħ¶": 991,
      "ç®": 992,
      "åĲĮ": 993,
      "ia": 994,
      "er,ĠĠ": 995,
      "å»": 996,
      "åĵ": 997,
      "mĠ": 998,
      "asĠĊ": 999,
      "befor": 1000,
      ".ĠTheĠ": 1001,
      "äº§": 1002,
      "es,Ġ": 1003,
      "etĠĠ": 1004,
      "ç¤¾": 1005,
      "eĠĠtoĠĠ": 1006,
      "æľ¬": 1007,
      "ens": 1008,
      "cur": 1009,
      "ook": 1010,
      "åº¦": 1011,
      "og": 1012,
      "ç«": 1013,
      "ableĠ": 1014,
      "under": 1015,
      "hel": 1016,
      "åħ³": 1017,
      "canĠ": 1018,
      "tionĠĠ": 1019,
      "them": 1020,
      "æ±": 1021,
      "ĠĠĠĠĠĠĠĠ": 1022,
      "wereĠ": 1023
    },
    "merges": [
      "Ġ Ġ",
      "t h",
      "Ġ Ċ",
      "e ĠĠ",
      "i n",
      "e r",
      "a n",
      "e Ġ",
      "o n",
      "s ĠĠ",
      "e n",
      "d ĠĠ",
      ", ĠĠ",
      "o r",
      "a t",
      "o f",
      "s Ġ",
      "a r",
      "ĠĠ th",
      "s t",
      "o u",
      "r e",
      "ĠĊ Ċ",
      "d Ġ",
      "a l",
      "t o",
      ". ĠĠ",
      "i t",
      ", Ġ",
      "in g",
      "Ġ th",
      "ĠĠth eĠĠ",
      "y ĠĠ",
      "c h",
      "t ĠĠ",
      "h i",
      "o m",
      "i on",
      "s e",
      "y Ġ",
      "l e",
      "ä ¸",
      "an dĠĠ",
      ". Ġ",
      "t Ġ",
      "ï ¼",
      "of ĠĠ",
      "i l",
      "i c",
      "Ġth eĠ",
      "e s",
      "f or",
      "ï¼ Į",
      "e dĠĠ",
      "i s",
      "a c",
      "e l",
      "h a",
      ". ĠĊĊ",
      "a ĠĠ",
      "â Ģ",
      "o w",
      "ç ļ",
      "çļ Ħ",
      "to ĠĠ",
      "an dĠ",
      "u r",
      "o l",
      "er ĠĠ",
      "d e",
      "a m",
      "th eĠĠ",
      "a Ġ",
      "a s",
      "en t",
      "i r",
      "b e",
      "ã Ģ",
      "T h",
      "r o",
      "e ĠĊ",
      "w a",
      "in ĠĠ",
      "i v",
      "i th",
      "i sĠĠ",
      "to Ġ",
      "of Ġ",
      "g h",
      "n o",
      "- ĠĊ",
      "al l",
      "e d",
      "w h",
      "e m",
      "i m",
      "u n",
      "ing ĠĠ",
      "e dĠ",
      "ä º",
      "at ĠĠ",
      "ing Ġ",
      "c on",
      "a d",
      "s u",
      "er Ġ",
      "w ith",
      "r i",
      "l i",
      "a b",
      "i sĠ",
      "e c",
      "ĠĠ ĠĠ",
      "* *",
      "ou r",
      "v er",
      "a g",
      "at ion",
      ", ĠĊ",
      "in Ġ",
      "th eĠ",
      "at Ġ",
      "å ı",
      "u l",
      "p l",
      "i d",
      "en ĠĠ",
      "ĠĊĊ Ċ",
      "s h",
      "an d",
      "å ħ",
      "æ ľ",
      "e t",
      "of ĠĠtheĠĠ",
      "c om",
      "o ĠĠ",
      "e x",
      "ä »",
      "u t",
      "ou n",
      "d i",
      "e sĠĠ",
      "p o",
      ",ĠĠ andĠĠ",
      "w hi",
      "e sĠ",
      "e ar",
      "å Ī",
      "il l",
      "t r",
      "t er",
      "an ĠĠ",
      "f r",
      "u s",
      "a p",
      "ãĢ Ĥ",
      "o o",
      ". ĠĊ",
      "q u",
      "e st",
      "ch ĠĠ",
      "p ro",
      "m a",
      "p er",
      "re s",
      "o Ġ",
      "wa sĠĠ",
      "Ċ Ċ",
      "t ion",
      "å ®",
      "al Ġ",
      "i f",
      "ä ½",
      "u m",
      "ha v",
      "; ĠĠ",
      "a sĠĠ",
      "hi sĠĠ",
      "t a",
      "è ¿",
      "al ĠĠ",
      "ou l",
      "an Ġ",
      "å Ĭ",
      "st ĠĠ",
      "æ ĸ",
      "fr om",
      "å Ń",
      "on ĠĠ",
      "en Ġ",
      "å ľ",
      "a y",
      "ç »",
      "ç Ķ",
      "e ,ĠĠ",
      "s ,ĠĠ",
      "n ĠĠ",
      "å ¤",
      "it ĠĠ",
      "e v",
      "er eĠĠ",
      "or ĠĠ",
      "p ar",
      "p r",
      "h eĠĠ",
      "en c",
      "o p",
      "âĢ Ķ",
      "s i",
      "å Ĳ",
      "l o",
      "è ¯",
      "b eĠĠ",
      "an c",
      "m o",
      "æ ĺ",
      "u p",
      "ä ¹",
      "w or",
      "å Ľ",
      "ãĢ ģ",
      "a v",
      "b u",
      "ĠĠ Ġ",
      "l yĠĠ",
      "s ĠĊ",
      "th er",
      "y ou",
      "en tĠĠ",
      "Th eĠĠ",
      "e w",
      "an t",
      "ou gh",
      "st Ġ",
      "g r",
      "ä ¼",
      "of ĠtheĠ",
      "è ®",
      "s p",
      "s ,Ġ",
      "æ ķ",
      "it Ġ",
      "åŃ ¦",
      "l eĠĠ",
      "u c",
      "or Ġ",
      "e a",
      "en d",
      "el l",
      "on Ġ",
      "ch Ġ",
      "m an",
      "y ĠĊ",
      "e ir",
      "a in",
      "st r",
      "f f",
      "in ĠĠtheĠĠ",
      "a sĠ",
      "for ĠĠ",
      "is h",
      "en tĠ",
      "e ,Ġ",
      "c o",
      "e p",
      "b eĠ",
      "eĠĠ ofĠĠ",
      "in c",
      "l a",
      ". Ċ",
      "k ĠĠ",
      "k Ġ",
      "ac t",
      "with ĠĠ",
      "o c",
      "no tĠĠ",
      "for Ġ",
      "æĺ ¯",
      "æ Ī",
      "n ow",
      "w ill",
      "ar eĠĠ",
      "I n",
      "I ĠĠ",
      "å ¯",
      "m or",
      "I Ġ",
      "on g",
      "b yĠĠ",
      "ä¸ Ń",
      "l yĠ",
      "i g",
      "hi m",
      "Th eĠ",
      "âĢ Ŀ",
      "l eĠ",
      "ä¸ Ģ",
      "t w",
      "å º",
      "A n",
      "ĠĠth eĠĊ",
      "y ,ĠĠ",
      "å ¹",
      "âĢ ľ",
      "m e",
      "s a",
      "æ Ģ",
      "åľ ¨",
      "d er",
      "ar eĠ",
      "of ĠĊ",
      "ĠĠ ofĠĠ",
      "i gh",
      "å Į",
      "o th",
      "ec t",
      "whi chĠĠ",
      "å ¼",
      "re c",
      "ĠĠ |",
      "å Ĵ",
      "âĢĶ Ġ",
      "äº º",
      "to ĠĠtheĠĠ",
      "è Ģ",
      "é ĩ",
      "åĴ Į",
      "æ Ŀ",
      "t im",
      "se l",
      "æ Ĺ",
      "s om",
      "sĠĠ ofĠĠ",
      "wa sĠ",
      "å į",
      "s .ĠĠ",
      "th atĠĠ",
      "er eĠ",
      "è ¡",
      "and ĠĊ",
      "ä¸ º",
      "o s",
      ",Ġ andĠ",
      "å °",
      "an g",
      "' sĠĠ",
      "å Ĩ",
      "p res",
      "r a",
      "æ Ķ",
      "n e",
      "\" ĠĠ",
      "c a",
      "æľ ī",
      "æ ł",
      "hav eĠĠ",
      "for m",
      "oul dĠĠ",
      "m u",
      "; Ġ",
      "g re",
      "all ĠĠ",
      "e yĠĠ",
      "hi sĠ",
      "b y",
      "è §",
      "with Ġ",
      "our ĠĠ",
      "åĽ ½",
      "u d",
      "C h",
      "ç Ľ",
      "ç İ",
      "o d",
      "ar d",
      "å ±",
      "p or",
      "S t",
      "çĶ Ł",
      "b l",
      "m ent",
      "po s",
      "es s",
      "ç §",
      "in ĠtheĠ",
      "i st",
      "it ion",
      "ĠĠth atĠĠ",
      "è ´",
      "o t",
      "æ ī",
      "å ĩ",
      "W h",
      "y ear",
      "b r",
      "d is",
      "p re",
      "in t",
      "å ·",
      "f ul",
      "our Ġ",
      "o b",
      "å ¾",
      "n Ġ",
      "ä¸ į",
      "th at",
      "i i",
      "in d",
      "' ĠĠ",
      "é Ģ",
      "å ¸",
      ".ĠĊĊ Ċ",
      "** ĊĊ",
      "p le",
      "ä¸ ļ",
      "no tĠ",
      "s er",
      "th atĠ",
      "on eĠĠ",
      "ç Ĳ",
      "âĢ Ļ",
      "\" Ġ",
      "u re",
      "f ĠĠ",
      "ation Ġ",
      "eĠ ofĠ",
      "h eĠ",
      "it t",
      ".ĠĠ H",
      "s o",
      "æ Ĭ",
      "å¯ ¹",
      ": Ġ",
      "c l",
      "ha dĠĠ",
      "e ver",
      "d ĠĊ",
      "æ ŀ",
      "å ½",
      "ou t",
      "s c",
      "a f",
      "ĠĠ andĠĠ",
      "s .Ġ",
      "b yĠ",
      "ĠĠ| Ġ",
      "m on",
      "f ir",
      ", ĠĊĊ",
      "u se",
      "o v",
      "f a",
      "h e",
      "eir ĠĠ",
      "l ow",
      "or d",
      "hav eĠ",
      "at t",
      "iv eĠĠ",
      "è ¦",
      "çĲ Ĩ",
      "ĥ ½",
      "ä» ¥",
      "ĠĠth isĠĠ",
      "è¦ ģ",
      "par t",
      "d o",
      "t t",
      "e yĠ",
      "ed ĠĊ",
      "k eĠĠ",
      "**ĊĊ **",
      "le s",
      "åı ĳ",
      "d r",
      "f e",
      "p e",
      "y ,Ġ",
      "m ar",
      "w ereĠĠ",
      "v i",
      "è µ",
      "Ġth atĠ",
      "m in",
      "æ ³",
      "æķ Ļ",
      "b er",
      "äº Ĩ",
      "Ġ andĠ",
      "T H",
      "å¤ §",
      "ï¼ ļ",
      "to ĠĊ",
      "a ĠĊ",
      "h er",
      "you Ġ",
      "k eĠ",
      "s oĠĠ",
      "oul dĠ",
      "s ion",
      "k now",
      "ä¸ İ",
      "ä½ ľ",
      "M r",
      "bu tĠĠ",
      "é Ŀ",
      "d uc",
      "all Ġ",
      ".ĠĠ I",
      "f in",
      "a u",
      "ä ¿",
      "å ¿",
      "ç ī",
      "from ĠĠ",
      "no t",
      "ä½ ĵ",
      "ha sĠĠ",
      "on eĠ",
      "p h",
      "æ °",
      "iv eĠ",
      "to ĠtheĠ",
      "sĠ ofĠ",
      "æ µ",
      "é Ĺ",
      "æĸ ĩ",
      "åĮ ĸ",
      "å Ł",
      "æ Ń",
      "ä¼ ļ",
      "h erĠĠ",
      "t ur",
      "th ĠĠ",
      "ç Ń",
      "c oun",
      "u st",
      "è¡ Į",
      "g e",
      "ou tĠĠ",
      "s oĠ",
      "in ĠĊ",
      "é Ļ",
      ".ĠĠ TheĠĠ",
      "p a",
      "Ġ ofĠ",
      "t i",
      "Â «",
      "re a",
      ".ĠĠ A",
      "at eĠĠ",
      "g o",
      "s on",
      "g en",
      "ic ĠĠ",
      ") Ġ",
      "m er",
      "at eĠ",
      "d es",
      "am eĠĠ",
      "gh t",
      "i dĠĠ",
      "l l",
      "æĢ §",
      "whi chĠ",
      "ar g",
      "on ĠĠtheĠĠ",
      "m ad",
      "ation ĠĠ",
      "be enĠĠ",
      "w eĠĠ",
      ".ĠĠ S",
      "i z",
      "w eĠ",
      "sĠĠ andĠĠ",
      "ĠĊĊĊ Ċ",
      "è ĩ",
      "it yĠĠ",
      "çĶ ¨",
      "w ar",
      "es ,ĠĠ",
      "o ol",
      "ou tĠ",
      "A N",
      "i Ġ",
      "sĠ andĠ",
      "c ar",
      "e .Ġ",
      "l y",
      "f Ġ",
      "è ĥ½",
      ". .",
      "b ut",
      "äº İ",
      "ou s",
      "ing ĠĊ",
      "æ İ",
      "å® ŀ",
      "p u",
      "it yĠ",
      "f i",
      "' sĠ",
      "ic Ġ",
      "whi ch",
      "ar t",
      "th eĠĊ",
      "se dĠĠ",
      "æĸ ¹",
      "in ter",
      ",ĠĠ theĠĠ",
      "æĪ Ĳ",
      "ç ¤",
      "su b",
      "wh oĠĠ",
      "g l",
      "w e",
      "ĠĠ toĠĠ",
      "; ĠĊ",
      "çİ °",
      "pl ac",
      "p ur",
      "ĠĠ S",
      "h ow",
      "c r",
      ".ĠĠ B",
      "J o",
      "åĪ Ĩ",
      "ä¸ »",
      "é ¢",
      "w ell",
      "b o",
      "åĩ º",
      ".ĠĠ ĠĠĠ",
      "le c",
      "com m",
      "s id",
      "ta in",
      "m yĠĠ",
      "åľ °",
      "ser v",
      "I N",
      "un d",
      "will ĠĠ",
      "s ch",
      "ä¸ Ĭ",
      "ĠĠ|Ġ **",
      "TH E",
      "t e",
      "will Ġ",
      "ĠĠ C",
      "edĠĠ toĠĠ",
      "e y",
      "âĢ ¢",
      "it sĠĠ",
      "of f",
      "n es",
      "n at",
      "ç º",
      "åĬ ¨",
      "f l",
      "ou sĠĠ",
      "å¹ ´",
      "F r",
      "ç ¨",
      "ä¸ ª",
      "c er",
      "eĠĠ andĠĠ",
      "O N",
      "s ur",
      "g oo",
      "E R",
      "from Ġ",
      "Ġth isĠ",
      "eir Ġ",
      "p p",
      "è ¾",
      "è Ĥ",
      "è¿ Ľ",
      "wor k",
      "f ol",
      "ow n",
      "at ĠĠtheĠĠ",
      "è¿ Ļ",
      "å± ķ",
      "s ol",
      "æ³ ķ",
      "ap p",
      "æĹ ¶",
      "å ĳ",
      "ew ĠĠ",
      "æ Į",
      "eĠĠ theĠĠ",
      "d ,ĠĠ",
      "u sĠĠ",
      "é «",
      "le dĠĠ",
      "ĠĠth eirĠĠ",
      "r ough",
      "th Ġ",
      "bu tĠ",
      "ic i",
      "å İ",
      "é« ĺ",
      "l at",
      "ç» ı",
      "con t",
      "l in",
      "E n",
      "ar i",
      "ha dĠ",
      "an tĠĠ",
      "** ĠĠ|Ġ**",
      "ac c",
      "com p",
      "æĶ ¿",
      "- Ġ",
      "ab leĠĠ",
      "you ĠĠ",
      "ĠĊ theĠĠ",
      "o ver",
      "k e",
      "no ĠĠ",
      "åĬ Ľ",
      "Ġth eĠĊ",
      "c ol",
      "ç ł",
      "c e",
      "wa y",
      "pro v",
      "ha sĠ",
      "æ Ħ",
      "c re",
      "all yĠ",
      "an s",
      ": ĠĠ",
      "An dĠĠ",
      "por t",
      "i de",
      "st or",
      "s y",
      "it i",
      "æ ²",
      "åĪ ¶",
      "s hi",
      "ing ĠĠtheĠĠ",
      "d ay",
      "tion Ġ",
      "o ther",
      "w r",
      "d a",
      "ma yĠĠ",
      "O F",
      "is ĠĊ",
      "ç ©",
      "ed ,ĠĠ",
      "ä¹ ĭ",
      "g iv",
      "æ ĥ",
      "re ad",
      "as s",
      "i re",
      "Â »",
      ".ĠĠ C",
      ".ĠĠ Th",
      "èĢ Į",
      ") ĠĠ",
      "en g",
      "æ ı",
      "^ ĠĠ",
      "å· ¥",
      "u sĠ",
      "åħ ¶",
      "ç ®",
      "åĲ Į",
      "i a",
      "er ,ĠĠ",
      "å »",
      "å ĵ",
      "m Ġ",
      "as ĠĊ",
      "be for",
      ".Ġ TheĠ",
      "äº §",
      "es ,Ġ",
      "e tĠĠ",
      "ç¤ ¾",
      "eĠĠ toĠĠ",
      "æľ ¬",
      "en s",
      "c ur",
      "oo k",
      "åº ¦",
      "o g",
      "ç «",
      "ab leĠ",
      "un der",
      "h el",
      "åħ ³",
      "c anĠ",
      "tion ĠĠ",
      "th em",
      "æ ±",
      "ĠĠĠĠ ĠĠĠĠ",
      "w ereĠ"
    ]
  }
}